/*
 * Copyright (c) 2025 EdgeImpulse Inc.
 *
 * Generated by Edge Impulse and licensed under the applicable Edge Impulse
 * Terms of Service. Community and Professional Terms of Service
 * (https://edgeimpulse.com/legal/terms-of-service) or Enterprise Terms of
 * Service (https://edgeimpulse.com/legal/enterprise-terms-of-service),
 * according to your product plan subscription (the “License”).
 *
 * This software, documentation and other associated files (collectively referred
 * to as the “Software”) is a single SDK variation generated by the Edge Impulse
 * platform and requires an active paid Edge Impulse subscription to use this
 * Software for any purpose.
 *
 * You may NOT use this Software unless you have an active Edge Impulse subscription
 * that meets the eligibility requirements for the applicable License, subject to
 * your full and continued compliance with the terms and conditions of the License,
 * including without limitation any usage restrictions under the applicable License.
 *
 * If you do not have an active Edge Impulse product plan subscription, or if use
 * of this Software exceeds the usage limitations of your Edge Impulse product plan
 * subscription, you are not permitted to use this Software and must immediately
 * delete and erase all copies of this Software within your control or possession.
 * Edge Impulse reserves all rights and remedies available to enforce its rights.
 *
 * Unless required by applicable law or agreed to in writing, the Software is
 * distributed on an "AS IS" BASIS, WITHOUT WARRANTIES OR CONDITIONS OF ANY KIND,
 * either express or implied. See the License for the specific language governing
 * permissions, disclaimers and limitations under the License.
 */

#ifndef _EI_CLASSIFIER_TFLITE_LEARN_333519_3_H_
#define _EI_CLASSIFIER_TFLITE_LEARN_333519_3_H_

#define EI_CLASSIFIER_TFLITE_LEARN_333519_3_ARENA_SIZE     12006
const size_t tflite_learn_333519_3_arena_size = 12006;

#if defined __GNUC__
#define ALIGN(X) __attribute__((aligned(X)))
#elif defined _MSC_VER
#define ALIGN(X) __declspec(align(X))
#elif defined __TASKING__
#define ALIGN(X) __align(X)
#else
#define ALIGN(X)
#endif

#if defined(EI_MODEL_SECTION) && (defined(__GNUC__) || defined(__clang__))
#define STRINGIZE(x) #x
#define STRINGIZE_VALUE_OF(x) STRINGIZE(x)
#define MODEL_SECTION(X) __attribute__((section(STRINGIZE_VALUE_OF(X))))
#else
#define MODEL_SECTION(X)
#endif


MODEL_SECTION(EI_MODEL_SECTION) ALIGN(16) const unsigned char tflite_learn_333519_3[] = {
  0x20, 0x00, 0x00, 0x00, 0x54, 0x46, 0x4c, 0x33, 0x00, 0x00, 0x00, 0x00,
  0x14, 0x00, 0x20, 0x00, 0x1c, 0x00, 0x18, 0x00, 0x14, 0x00, 0x10, 0x00,
  0x0c, 0x00, 0x00, 0x00, 0x08, 0x00, 0x04, 0x00, 0x14, 0x00, 0x00, 0x00,
  0x1c, 0x00, 0x00, 0x00, 0x8c, 0x00, 0x00, 0x00, 0xe4, 0x00, 0x00, 0x00,
  0x04, 0x0e, 0x00, 0x00, 0x14, 0x0e, 0x00, 0x00, 0xcc, 0x1a, 0x00, 0x00,
  0x03, 0x00, 0x00, 0x00, 0x01, 0x00, 0x00, 0x00, 0x10, 0x00, 0x00, 0x00,
  0x00, 0x00, 0x0a, 0x00, 0x10, 0x00, 0x0c, 0x00, 0x08, 0x00, 0x04, 0x00,
  0x0a, 0x00, 0x00, 0x00, 0x0c, 0x00, 0x00, 0x00, 0x1c, 0x00, 0x00, 0x00,
  0x3c, 0x00, 0x00, 0x00, 0x0f, 0x00, 0x00, 0x00, 0x73, 0x65, 0x72, 0x76,
  0x69, 0x6e, 0x67, 0x5f, 0x64, 0x65, 0x66, 0x61, 0x75, 0x6c, 0x74, 0x00,
  0x01, 0x00, 0x00, 0x00, 0x04, 0x00, 0x00, 0x00, 0x9c, 0xff, 0xff, 0xff,
  0x10, 0x00, 0x00, 0x00, 0x04, 0x00, 0x00, 0x00, 0x08, 0x00, 0x00, 0x00,
  0x6f, 0x75, 0x74, 0x70, 0x75, 0x74, 0x5f, 0x30, 0x00, 0x00, 0x00, 0x00,
  0x01, 0x00, 0x00, 0x00, 0x04, 0x00, 0x00, 0x00, 0xe2, 0xf1, 0xff, 0xff,
  0x04, 0x00, 0x00, 0x00, 0x01, 0x00, 0x00, 0x00, 0x78, 0x00, 0x00, 0x00,
  0x02, 0x00, 0x00, 0x00, 0x34, 0x00, 0x00, 0x00, 0x04, 0x00, 0x00, 0x00,
  0xdc, 0xff, 0xff, 0xff, 0x13, 0x00, 0x00, 0x00, 0x04, 0x00, 0x00, 0x00,
  0x13, 0x00, 0x00, 0x00, 0x43, 0x4f, 0x4e, 0x56, 0x45, 0x52, 0x53, 0x49,
  0x4f, 0x4e, 0x5f, 0x4d, 0x45, 0x54, 0x41, 0x44, 0x41, 0x54, 0x41, 0x00,
  0x08, 0x00, 0x0c, 0x00, 0x08, 0x00, 0x04, 0x00, 0x08, 0x00, 0x00, 0x00,
  0x12, 0x00, 0x00, 0x00, 0x04, 0x00, 0x00, 0x00, 0x13, 0x00, 0x00, 0x00,
  0x6d, 0x69, 0x6e, 0x5f, 0x72, 0x75, 0x6e, 0x74, 0x69, 0x6d, 0x65, 0x5f,
  0x76, 0x65, 0x72, 0x73, 0x69, 0x6f, 0x6e, 0x00, 0x14, 0x00, 0x00, 0x00,
  0x1c, 0x0d, 0x00, 0x00, 0x14, 0x0d, 0x00, 0x00, 0xf4, 0x0c, 0x00, 0x00,
  0xdc, 0x0c, 0x00, 0x00, 0xc4, 0x0c, 0x00, 0x00, 0x34, 0x06, 0x00, 0x00,
  0xe4, 0x05, 0x00, 0x00, 0x54, 0x01, 0x00, 0x00, 0x24, 0x01, 0x00, 0x00,
  0xcc, 0x00, 0x00, 0x00, 0xc4, 0x00, 0x00, 0x00, 0xbc, 0x00, 0x00, 0x00,
  0xb4, 0x00, 0x00, 0x00, 0xac, 0x00, 0x00, 0x00, 0xa4, 0x00, 0x00, 0x00,
  0x9c, 0x00, 0x00, 0x00, 0x94, 0x00, 0x00, 0x00, 0x8c, 0x00, 0x00, 0x00,
  0x6c, 0x00, 0x00, 0x00, 0x04, 0x00, 0x00, 0x00, 0xa2, 0xf2, 0xff, 0xff,
  0x04, 0x00, 0x00, 0x00, 0x58, 0x00, 0x00, 0x00, 0x0c, 0x00, 0x00, 0x00,
  0x08, 0x00, 0x0e, 0x00, 0x08, 0x00, 0x04, 0x00, 0x08, 0x00, 0x00, 0x00,
  0x10, 0x00, 0x00, 0x00, 0x28, 0x00, 0x00, 0x00, 0x00, 0x00, 0x06, 0x00,
  0x08, 0x00, 0x04, 0x00, 0x06, 0x00, 0x00, 0x00, 0x04, 0x00, 0x00, 0x00,
  0x01, 0x00, 0x00, 0x00, 0xeb, 0x03, 0x00, 0x00, 0x00, 0x00, 0x0a, 0x00,
  0x10, 0x00, 0x0c, 0x00, 0x08, 0x00, 0x04, 0x00, 0x0a, 0x00, 0x00, 0x00,
  0x03, 0x00, 0x00, 0x00, 0x02, 0x00, 0x00, 0x00, 0x04, 0x00, 0x00, 0x00,
  0x06, 0x00, 0x00, 0x00, 0x32, 0x2e, 0x31, 0x31, 0x2e, 0x31, 0x00, 0x00,
  0x06, 0xf3, 0xff, 0xff, 0x04, 0x00, 0x00, 0x00, 0x10, 0x00, 0x00, 0x00,
  0x31, 0x2e, 0x31, 0x34, 0x2e, 0x30, 0x00, 0x00, 0x00, 0x00, 0x00, 0x00,
  0x00, 0x00, 0x00, 0x00, 0x9c, 0xe7, 0xff, 0xff, 0xa0, 0xe7, 0xff, 0xff,
  0xa4, 0xe7, 0xff, 0xff, 0xa8, 0xe7, 0xff, 0xff, 0xac, 0xe7, 0xff, 0xff,
  0xb0, 0xe7, 0xff, 0xff, 0xb4, 0xe7, 0xff, 0xff, 0xb8, 0xe7, 0xff, 0xff,
  0x42, 0xf3, 0xff, 0xff, 0x04, 0x00, 0x00, 0x00, 0x48, 0x00, 0x00, 0x00,
  0x06, 0x8a, 0x2f, 0x44, 0x81, 0xe0, 0x4d, 0xd2, 0xcf, 0xeb, 0xb1, 0xce,
  0x15, 0xc1, 0xf4, 0x81, 0x9f, 0xf8, 0x45, 0x61, 0x9a, 0x49, 0x58, 0x94,
  0x7f, 0x00, 0xb3, 0x81, 0x39, 0x34, 0x8f, 0x5f, 0x33, 0xa8, 0x32, 0x20,
  0x63, 0xc8, 0xa6, 0x16, 0xbc, 0x02, 0x0a, 0x81, 0x5a, 0x26, 0x57, 0xf6,
  0xf4, 0x15, 0xfd, 0x81, 0xf6, 0x2e, 0x7f, 0xef, 0x35, 0x0e, 0xdf, 0xd9,
  0xf6, 0x3b, 0xaf, 0x59, 0x7f, 0x40, 0x28, 0x01, 0x0c, 0x1b, 0x78, 0x58,
  0x96, 0xf3, 0xff, 0xff, 0x04, 0x00, 0x00, 0x00, 0x20, 0x00, 0x00, 0x00,
  0x93, 0xe6, 0xff, 0xff, 0x95, 0xf6, 0xff, 0xff, 0x65, 0xe1, 0xff, 0xff,
  0x1e, 0xde, 0xff, 0xff, 0x2e, 0xdd, 0xff, 0xff, 0xc2, 0xee, 0xff, 0xff,
  0x5c, 0xec, 0xff, 0xff, 0x5c, 0xe2, 0xff, 0xff, 0xc2, 0xf3, 0xff, 0xff,
  0x04, 0x00, 0x00, 0x00, 0x80, 0x04, 0x00, 0x00, 0xf7, 0xf1, 0xd0, 0xed,
  0xf1, 0xf0, 0x14, 0xab, 0xee, 0x0f, 0x10, 0xfd, 0x2e, 0x07, 0x6d, 0xc1,
  0xd3, 0xc5, 0x04, 0x2a, 0xda, 0x07, 0xdf, 0x0f, 0x2a, 0xec, 0x59, 0xc1,
  0x0e, 0xc2, 0xe7, 0x09, 0xc3, 0x13, 0xaf, 0xec, 0xc7, 0x18, 0xd9, 0xd1,
  0xf5, 0xe8, 0xf5, 0x0a, 0xd2, 0x1a, 0xde, 0x19, 0xf1, 0x19, 0x56, 0x81,
  0x01, 0xa0, 0x0b, 0xed, 0xeb, 0x15, 0xe8, 0xdc, 0xc3, 0xdd, 0xbb, 0xec,
  0x10, 0x02, 0xb7, 0xe6, 0xf0, 0x05, 0x24, 0xae, 0x1f, 0xf5, 0x12, 0xe6,
  0x20, 0xb3, 0x1a, 0xe2, 0xb3, 0xe1, 0x1e, 0x22, 0xef, 0x31, 0x00, 0x0c,
  0xf4, 0xec, 0xb1, 0x22, 0x17, 0x06, 0xe5, 0x06, 0x18, 0xe1, 0x08, 0xd4,
  0xfd, 0xe8, 0x15, 0x06, 0xc9, 0xde, 0xfd, 0x13, 0xbc, 0x20, 0x1c, 0x0d,
  0xfd, 0xdb, 0xa9, 0xe4, 0xe5, 0x06, 0x13, 0xf8, 0xf5, 0x11, 0x00, 0x89,
  0xc7, 0xbc, 0x2a, 0xe1, 0x17, 0x2c, 0xe4, 0xe6, 0xdc, 0x2f, 0xf3, 0x81,
  0xe1, 0x14, 0xca, 0xdb, 0xc0, 0xfa, 0x16, 0xb0, 0xc0, 0x03, 0xc3, 0x10,
  0xae, 0x3f, 0x1a, 0x00, 0xad, 0xae, 0xf4, 0xe8, 0xa1, 0xc4, 0xd1, 0x45,
  0xc3, 0xf0, 0xbf, 0xb5, 0x97, 0xca, 0xf6, 0xc4, 0xa9, 0xdd, 0xd8, 0x0f,
  0x81, 0x15, 0xbe, 0x06, 0xf8, 0x8b, 0x0d, 0xc9, 0xd6, 0x25, 0x08, 0x0c,
  0x01, 0xfb, 0x92, 0xe6, 0x00, 0x26, 0xeb, 0xae, 0xc5, 0xc2, 0x16, 0x23,
  0xf0, 0xfa, 0x92, 0x56, 0xf3, 0xbe, 0x19, 0xa5, 0xe5, 0xf1, 0x16, 0x54,
  0x0a, 0x2f, 0xb7, 0xf1, 0x02, 0x01, 0x34, 0xfe, 0xc9, 0xbd, 0x10, 0xaf,
  0x06, 0x91, 0xb5, 0x1b, 0xd5, 0xe0, 0x97, 0x10, 0x11, 0xf8, 0xba, 0xf8,
  0x0f, 0xfa, 0x25, 0xaa, 0x44, 0xa4, 0xea, 0xf6, 0xc8, 0xb2, 0x0c, 0x9e,
  0x11, 0xb7, 0xe9, 0xe7, 0xa5, 0xc1, 0xd7, 0x0c, 0xa1, 0xdc, 0x81, 0x05,
  0xf4, 0x14, 0x0c, 0xac, 0x04, 0xb5, 0xf5, 0xf4, 0x0d, 0xb2, 0x20, 0xae,
  0xfd, 0xc1, 0xef, 0xec, 0x90, 0xa2, 0x14, 0x20, 0x8d, 0x00, 0xdc, 0x14,
  0xca, 0xcf, 0xf1, 0xb3, 0x26, 0xa5, 0x06, 0x15, 0x98, 0xca, 0xcf, 0x1d,
  0xc9, 0x22, 0xb4, 0x07, 0xb8, 0xb0, 0x13, 0xd8, 0xb9, 0x23, 0xf4, 0x4d,
  0xff, 0x10, 0x14, 0xf0, 0x51, 0xa7, 0xfe, 0xbb, 0x05, 0xe5, 0x07, 0xe4,
  0x17, 0xe7, 0xc7, 0xf2, 0x81, 0x90, 0x2e, 0x1c, 0x98, 0x0c, 0xec, 0x2b,
  0xbd, 0x05, 0xcd, 0x3a, 0xe5, 0xa7, 0xf0, 0xcf, 0x04, 0xe3, 0x09, 0x0c,
  0xf9, 0xf9, 0x31, 0xff, 0x95, 0xae, 0x27, 0x18, 0x85, 0xf2, 0xaf, 0x4b,
  0xbc, 0xcd, 0x84, 0x3d, 0x41, 0xc0, 0xd2, 0xf6, 0xf2, 0xef, 0xbc, 0x1d,
  0x3d, 0xce, 0x8b, 0xc8, 0x10, 0x09, 0x34, 0xe1, 0x47, 0xe6, 0x24, 0xed,
  0xfa, 0x16, 0x81, 0xfa, 0xf7, 0xe2, 0xc0, 0xc4, 0xc9, 0xbb, 0x19, 0x0f,
  0x20, 0xf2, 0xc4, 0x09, 0x08, 0x1b, 0x25, 0xb8, 0x2b, 0xf5, 0x19, 0xda,
  0xf0, 0x0e, 0xd7, 0xfa, 0xdb, 0xff, 0xa2, 0xed, 0x88, 0xdb, 0x25, 0x07,
  0x8b, 0x0b, 0xe3, 0x00, 0x20, 0x19, 0xd3, 0xbb, 0x10, 0xc3, 0x16, 0xba,
  0xb3, 0xb5, 0x07, 0xe4, 0x98, 0xc1, 0xd0, 0x10, 0xd2, 0x19, 0xf8, 0x08,
  0xb6, 0x3f, 0xcb, 0x0a, 0xe9, 0xb2, 0xc8, 0x23, 0xef, 0x23, 0xeb, 0x20,
  0xf4, 0xf8, 0xf1, 0xaf, 0x05, 0xbf, 0x50, 0xe2, 0xc1, 0xe5, 0xf2, 0xf0,
  0xf8, 0xd1, 0xa6, 0xee, 0xab, 0xac, 0x1f, 0x11, 0xbe, 0xf6, 0xf5, 0x29,
  0x17, 0x12, 0x38, 0x81, 0x10, 0xed, 0x1c, 0x01, 0xd4, 0x01, 0x01, 0x25,
  0xac, 0x3c, 0xeb, 0x16, 0xc2, 0xda, 0xfb, 0xe6, 0xbb, 0x39, 0xe4, 0x19,
  0xed, 0x3c, 0x11, 0xbb, 0x11, 0xac, 0x21, 0xe3, 0xc2, 0xd5, 0xe0, 0xe5,
  0xa4, 0x1f, 0x05, 0x37, 0xe7, 0x2a, 0xfd, 0xc5, 0x31, 0x13, 0x3e, 0xb3,
  0xc1, 0x19, 0xa5, 0xe7, 0xb8, 0x28, 0x28, 0xeb, 0x05, 0x3c, 0xa4, 0xbf,
  0xc0, 0xc8, 0x13, 0x81, 0xea, 0x28, 0xbc, 0xb5, 0xe3, 0xbc, 0xc4, 0xd5,
  0xc3, 0x3e, 0xd2, 0xff, 0x97, 0xe3, 0xd1, 0x54, 0xe0, 0xd8, 0xc9, 0xfc,
  0x91, 0xf2, 0xbf, 0xfb, 0x0b, 0x09, 0xd2, 0xcd, 0xfe, 0xb2, 0xac, 0x2c,
  0x8f, 0x9e, 0xe6, 0xf8, 0x95, 0x12, 0xbc, 0x37, 0xfc, 0xe9, 0x0e, 0xc3,
  0x09, 0x9f, 0x9d, 0xde, 0x1b, 0x18, 0x12, 0xca, 0x0a, 0x9a, 0x0a, 0xa1,
  0xe6, 0xf1, 0x61, 0x1c, 0xb9, 0x11, 0x22, 0xe8, 0xf9, 0xe9, 0x67, 0xac,
  0x07, 0xc3, 0x16, 0xf2, 0xf2, 0xf4, 0xf4, 0xf0, 0xfd, 0xc9, 0xea, 0xa2,
  0xfa, 0xfa, 0x13, 0xdb, 0x2e, 0xeb, 0xe8, 0xd7, 0xfe, 0x06, 0xed, 0xb5,
  0x2c, 0xd1, 0x20, 0xbb, 0xa3, 0xdf, 0x20, 0x09, 0x17, 0xd1, 0xcb, 0xf1,
  0xff, 0x37, 0xf4, 0xb8, 0x2b, 0xb4, 0xff, 0x81, 0xbb, 0x99, 0xfd, 0xeb,
  0xdc, 0x17, 0xe8, 0x43, 0x3c, 0xe1, 0xfa, 0x81, 0xde, 0xf4, 0x10, 0xd5,
  0xbe, 0xfa, 0xc2, 0x26, 0xc6, 0x39, 0xf3, 0xd1, 0xd6, 0xdd, 0xd5, 0x11,
  0x9b, 0x08, 0x04, 0xe5, 0x15, 0xd2, 0x17, 0xdf, 0xf0, 0x24, 0x35, 0x18,
  0x1f, 0x1a, 0xd8, 0x0b, 0xd2, 0x0c, 0xf5, 0xb8, 0xd7, 0xe4, 0xc1, 0xdc,
  0xcb, 0xfe, 0x01, 0xea, 0xa2, 0xeb, 0x04, 0xfc, 0xd0, 0x04, 0x05, 0x40,
  0x2c, 0x19, 0x04, 0x8e, 0x0e, 0xe7, 0x24, 0xd7, 0x1a, 0x27, 0x9e, 0x1c,
  0x19, 0x2d, 0xb9, 0xa2, 0xf4, 0xf8, 0x30, 0xf1, 0x09, 0xd2, 0xfe, 0xf6,
  0xac, 0xfa, 0xec, 0x0e, 0xa5, 0xd9, 0xc9, 0x00, 0x24, 0x3d, 0xa7, 0x26,
  0x24, 0x2d, 0xe1, 0x9a, 0xc5, 0x94, 0x02, 0x9d, 0xf2, 0x89, 0xfb, 0xc9,
  0x99, 0xa3, 0x0b, 0x0e, 0xa4, 0xec, 0x81, 0x19, 0x1a, 0x1c, 0xa9, 0x39,
  0x23, 0x2e, 0x09, 0xf0, 0xf9, 0xc8, 0x15, 0xdd, 0xee, 0xe7, 0xd5, 0x0c,
  0xab, 0xaa, 0xee, 0x21, 0xad, 0xb8, 0xbb, 0x09, 0xe7, 0xf6, 0xcb, 0x62,
  0x03, 0xeb, 0xd2, 0xc4, 0x12, 0xf5, 0xdb, 0xdf, 0x05, 0xf2, 0xfd, 0xa4,
  0x8f, 0xfa, 0xeb, 0x03, 0xa8, 0x2c, 0xff, 0x48, 0x27, 0x26, 0xb8, 0xf9,
  0x23, 0xde, 0xcf, 0x9a, 0xc7, 0x09, 0x81, 0x0b, 0xfd, 0xe0, 0xd2, 0xbd,
  0xa8, 0xe1, 0xe7, 0x0c, 0xb2, 0xda, 0xf1, 0x09, 0x17, 0xf7, 0x29, 0xa7,
  0x2a, 0xba, 0xd1, 0x8f, 0xf4, 0x22, 0xbc, 0x11, 0xc3, 0xff, 0x1d, 0xef,
  0xf8, 0xed, 0xd4, 0x17, 0xf0, 0x44, 0x1a, 0x13, 0xb3, 0xc2, 0x12, 0xcd,
  0x8a, 0xa9, 0xe6, 0x0a, 0xc0, 0xc8, 0xfc, 0xf3, 0xcd, 0xde, 0xb0, 0xe0,
  0x02, 0x01, 0xf1, 0xe6, 0x16, 0xe7, 0xe1, 0x08, 0x92, 0x92, 0xe5, 0x9b,
  0xc9, 0xa5, 0xb7, 0x23, 0x9f, 0xb7, 0xf8, 0xe9, 0xdb, 0xbf, 0x95, 0xe2,
  0xf6, 0xe5, 0x0d, 0x16, 0x12, 0x81, 0xd1, 0x01, 0xda, 0xc6, 0x18, 0xbe,
  0x01, 0xc7, 0xcc, 0x20, 0xb4, 0x97, 0x09, 0xd0, 0xab, 0xcf, 0xd7, 0x00,
  0xd1, 0xd1, 0xdc, 0x25, 0x25, 0xd4, 0xce, 0x0f, 0xf6, 0x22, 0x9a, 0xa5,
  0xa3, 0xa1, 0xa5, 0xb2, 0xe7, 0x10, 0x91, 0x1b, 0x01, 0x02, 0x93, 0xdf,
  0xf6, 0xd7, 0xf0, 0xbb, 0xe5, 0xc6, 0x13, 0x35, 0xe6, 0xee, 0xad, 0x9d,
  0x02, 0xe9, 0x9c, 0x81, 0x10, 0x33, 0x8f, 0x24, 0xff, 0x3c, 0x90, 0xcf,
  0xe0, 0xc6, 0xdb, 0xaa, 0xe3, 0xdf, 0x16, 0x06, 0xd4, 0x22, 0x9a, 0xad,
  0xcc, 0xe8, 0xa3, 0xbb, 0xf3, 0x0b, 0xcc, 0xdf, 0xf3, 0x16, 0xd4, 0x10,
  0x9d, 0xfc, 0xd7, 0xf9, 0xc8, 0x1b, 0xfc, 0x1b, 0xf8, 0x86, 0x23, 0xc6,
  0xd1, 0xe3, 0x27, 0x17, 0x16, 0x14, 0xf1, 0xd1, 0xf6, 0x11, 0xfb, 0xa7,
  0xdd, 0xf5, 0x17, 0x32, 0xc7, 0x2d, 0x1e, 0x0a, 0xa8, 0xbd, 0x14, 0xdc,
  0xc0, 0x18, 0x3c, 0x36, 0x0e, 0x02, 0xf6, 0x9b, 0x13, 0x81, 0x21, 0x9b,
  0xe3, 0x05, 0xfd, 0x11, 0x09, 0x21, 0x03, 0x11, 0xaa, 0xf8, 0xe6, 0x09,
  0x8d, 0x18, 0xf4, 0xec, 0x20, 0xdf, 0x1f, 0xa8, 0x00, 0xc9, 0x29, 0xd9,
  0x09, 0x03, 0x0b, 0x38, 0xf8, 0x1f, 0xf0, 0x2b, 0xbf, 0xb8, 0xea, 0xa2,
  0xe6, 0x94, 0xe6, 0x32, 0x1c, 0xe9, 0x1e, 0xef, 0x03, 0x17, 0xeb, 0xd6,
  0xd1, 0xef, 0x0f, 0x02, 0xe4, 0x33, 0x15, 0x00, 0xbe, 0x99, 0x1e, 0xc0,
  0xf5, 0xdb, 0x2a, 0x03, 0xff, 0xb9, 0x06, 0xea, 0xb7, 0x25, 0x23, 0xf7,
  0x29, 0xf7, 0xb9, 0x03, 0xe5, 0x0e, 0xb0, 0xd4, 0x05, 0xc5, 0xf5, 0xd0,
  0xef, 0x19, 0x44, 0xed, 0x9b, 0xbb, 0x0b, 0xea, 0x9c, 0xf8, 0xf9, 0x07,
  0x12, 0x00, 0xa4, 0x23, 0xfe, 0xf2, 0xe3, 0x81, 0x4e, 0xf8, 0xff, 0xff,
  0x04, 0x00, 0x00, 0x00, 0x40, 0x00, 0x00, 0x00, 0x99, 0xe9, 0xff, 0xff,
  0x82, 0xe3, 0xff, 0xff, 0x6d, 0xfb, 0xff, 0xff, 0x9a, 0x11, 0x00, 0x00,
  0x86, 0xff, 0xff, 0xff, 0xa6, 0xe3, 0xff, 0xff, 0x7a, 0xfb, 0xff, 0xff,
  0xbc, 0x05, 0x00, 0x00, 0xc4, 0xe8, 0xff, 0xff, 0xf8, 0xf5, 0xff, 0xff,
  0xb8, 0xf2, 0xff, 0xff, 0x6d, 0xff, 0xff, 0xff, 0xde, 0x17, 0x00, 0x00,
  0xa8, 0x16, 0x00, 0x00, 0x8e, 0xe8, 0xff, 0xff, 0x0b, 0x09, 0x00, 0x00,
  0x9a, 0xf8, 0xff, 0xff, 0x04, 0x00, 0x00, 0x00, 0x80, 0x06, 0x00, 0x00,
  0x02, 0xf5, 0x3f, 0x44, 0x14, 0xfe, 0x21, 0xe9, 0x08, 0x20, 0xc7, 0xe3,
  0x2c, 0xf9, 0x05, 0x0b, 0x0e, 0x29, 0xfd, 0xe4, 0xf9, 0x21, 0x08, 0x05,
  0x1d, 0x12, 0x17, 0x18, 0x19, 0x13, 0x28, 0x1e, 0xf7, 0xf6, 0x00, 0xe7,
  0x04, 0x18, 0x10, 0xf2, 0x02, 0x1b, 0x0b, 0x05, 0xf0, 0xf2, 0x03, 0xf1,
  0x5b, 0x08, 0x14, 0x15, 0x14, 0x0a, 0x09, 0xfa, 0x18, 0x17, 0xfb, 0x14,
  0x0a, 0x11, 0xcf, 0xf1, 0xf4, 0xf0, 0x2e, 0x43, 0x08, 0xfe, 0x50, 0x2c,
  0xf5, 0xfa, 0x01, 0xeb, 0x26, 0x4a, 0xf2, 0xed, 0x1d, 0x0c, 0xf9, 0x28,
  0xf2, 0x4a, 0xf8, 0x39, 0x35, 0xfb, 0xf7, 0x05, 0xf2, 0x1a, 0x15, 0x3b,
  0x10, 0x04, 0xff, 0x02, 0x16, 0xf5, 0x14, 0x1b, 0x03, 0xf9, 0x0d, 0x07,
  0x15, 0x1c, 0xed, 0xea, 0xef, 0x15, 0x16, 0x1c, 0x19, 0x2c, 0xf9, 0xee,
  0x0c, 0xd7, 0xfa, 0xee, 0x15, 0x03, 0x19, 0xfc, 0xf0, 0xdd, 0x08, 0x13,
  0xef, 0xf7, 0x22, 0x12, 0xe6, 0xde, 0x33, 0x29, 0xe3, 0x7b, 0xeb, 0xd8,
  0xe4, 0x0a, 0x29, 0x53, 0x1a, 0x25, 0xf2, 0x30, 0xff, 0x19, 0x09, 0xeb,
  0x36, 0x1c, 0x27, 0xfa, 0x19, 0xf7, 0x0a, 0x2d, 0x10, 0xd7, 0xff, 0x28,
  0x1b, 0xd7, 0x1e, 0x36, 0x25, 0x2d, 0xf3, 0xe6, 0xf8, 0xff, 0x1a, 0x24,
  0x37, 0x06, 0x28, 0x1e, 0xe3, 0x0d, 0x15, 0xfe, 0x45, 0x06, 0xed, 0x03,
  0x04, 0xdf, 0x1b, 0xde, 0xfe, 0x27, 0xf2, 0x0f, 0xe4, 0x02, 0x56, 0x5e,
  0xcc, 0x47, 0xfb, 0xfd, 0xdb, 0x02, 0x28, 0x06, 0x12, 0xd9, 0x22, 0x0f,
  0xe9, 0x18, 0x06, 0xfa, 0x2c, 0xfa, 0x24, 0x04, 0x16, 0x0a, 0x12, 0xdb,
  0x04, 0xff, 0x10, 0x0b, 0x2d, 0xe9, 0xf8, 0xf5, 0x0a, 0x1b, 0x0c, 0x07,
  0xe2, 0x0f, 0x03, 0x0b, 0x19, 0x14, 0x01, 0xee, 0x00, 0xfa, 0x00, 0x05,
  0x2b, 0xfd, 0xf6, 0x2c, 0x13, 0xed, 0x32, 0xe6, 0xdb, 0x22, 0xf2, 0x1c,
  0xea, 0x11, 0x55, 0x10, 0xc8, 0x4a, 0xef, 0xff, 0xef, 0x0d, 0x1f, 0x26,
  0x0d, 0xe3, 0x1b, 0x13, 0xe8, 0x25, 0xfd, 0xf9, 0x15, 0x0b, 0x0b, 0x23,
  0x1d, 0x0b, 0x08, 0xf6, 0x08, 0x00, 0x09, 0x0a, 0x1a, 0xfa, 0xf4, 0xfa,
  0x20, 0x00, 0xfa, 0x3c, 0xe4, 0xe9, 0xfe, 0xd5, 0xba, 0x05, 0xf9, 0x12,
  0xd1, 0xb8, 0x08, 0x14, 0x03, 0x02, 0xee, 0xde, 0x11, 0xd6, 0x27, 0xef,
  0xe2, 0x2a, 0xff, 0x36, 0xda, 0xfb, 0x1e, 0x12, 0xce, 0x39, 0xfb, 0xec,
  0xda, 0x01, 0x25, 0x0e, 0x49, 0xdd, 0x21, 0x18, 0xea, 0x29, 0x06, 0xe3,
  0xfd, 0x28, 0x07, 0x0a, 0xfe, 0xfd, 0x02, 0x06, 0x05, 0xfa, 0x04, 0x09,
  0x03, 0xef, 0x01, 0xe2, 0x25, 0xef, 0x06, 0x00, 0xff, 0x1f, 0x04, 0xfe,
  0xe8, 0x2a, 0xe5, 0x04, 0x0b, 0xf4, 0x15, 0x1f, 0xef, 0x16, 0xdf, 0xe0,
  0xfe, 0xd4, 0x25, 0xfc, 0xda, 0x0e, 0x07, 0x13, 0xde, 0xfa, 0x06, 0x0f,
  0xdf, 0x23, 0x03, 0xea, 0xea, 0x25, 0x22, 0x11, 0x0b, 0xc8, 0x00, 0x01,
  0xd9, 0x14, 0x33, 0xef, 0xee, 0x18, 0x14, 0x17, 0x11, 0xf4, 0xfd, 0x1f,
  0x29, 0x04, 0x0a, 0x0b, 0x00, 0xf3, 0x00, 0x06, 0x28, 0xf6, 0x02, 0x16,
  0xe1, 0x06, 0x00, 0x35, 0x31, 0x31, 0xf4, 0xfa, 0x0b, 0x1f, 0x04, 0x02,
  0x25, 0x0b, 0x00, 0x16, 0xef, 0xcf, 0x16, 0xfa, 0xf2, 0x10, 0xec, 0x07,
  0xed, 0xf4, 0x3f, 0x18, 0xde, 0x52, 0xf3, 0xf1, 0xed, 0x25, 0x22, 0xfb,
  0x1b, 0xec, 0x0f, 0xf7, 0xd6, 0x16, 0xf6, 0xd7, 0x38, 0x09, 0x0c, 0x34,
  0x18, 0xf5, 0xf3, 0x2d, 0x16, 0x0b, 0x04, 0xf5, 0x3c, 0xe9, 0x09, 0x11,
  0x2a, 0x05, 0x03, 0xf4, 0xe8, 0x0d, 0x0c, 0x11, 0x43, 0x03, 0x26, 0xfa,
  0x04, 0x13, 0x02, 0xfa, 0x35, 0x11, 0xf2, 0x0e, 0x00, 0x10, 0x23, 0xe9,
  0xe7, 0x21, 0xf0, 0x25, 0xf5, 0x02, 0x00, 0x4a, 0xc4, 0x34, 0x15, 0xef,
  0xe6, 0x05, 0x2c, 0x09, 0x36, 0xf7, 0x19, 0x0a, 0xe2, 0x0f, 0x19, 0xe7,
  0x21, 0x0c, 0x26, 0x13, 0x18, 0xf4, 0xff, 0xf7, 0x0b, 0x1b, 0xf7, 0x02,
  0x13, 0x00, 0x0c, 0xf8, 0x01, 0xe9, 0x02, 0x00, 0xef, 0x1f, 0x1e, 0x04,
  0x2e, 0xed, 0x20, 0x0f, 0xe5, 0x23, 0x09, 0x06, 0xd1, 0x23, 0x00, 0x20,
  0x3b, 0x18, 0x0a, 0xea, 0x04, 0x37, 0xe8, 0x33, 0xce, 0x0d, 0xc0, 0x2d,
  0xd4, 0xf7, 0x34, 0x10, 0xe0, 0xfb, 0x03, 0xe4, 0xf0, 0xe8, 0x12, 0xee,
  0xdf, 0x1a, 0x1c, 0xf5, 0xea, 0x1a, 0x20, 0x0c, 0xfb, 0x13, 0x22, 0xe3,
  0x1b, 0xe9, 0x15, 0xec, 0x0d, 0x0c, 0xec, 0xe6, 0xc7, 0xfb, 0x20, 0x1b,
  0x1b, 0x0e, 0x0c, 0xe2, 0x2a, 0x07, 0xf9, 0x0d, 0x32, 0x16, 0x01, 0x13,
  0xc0, 0x0c, 0x28, 0xf9, 0x62, 0x28, 0x0a, 0xdc, 0xe9, 0x15, 0xf9, 0x0b,
  0xfc, 0x5b, 0xe1, 0xf2, 0xd6, 0xe9, 0x46, 0x16, 0xf5, 0x04, 0xea, 0xfa,
  0xed, 0xf0, 0x02, 0x06, 0xde, 0xfd, 0x19, 0x16, 0xf1, 0x06, 0x18, 0x0e,
  0x14, 0x1f, 0x08, 0xc7, 0x2d, 0x18, 0x19, 0x03, 0xf9, 0x11, 0x09, 0xf7,
  0xa9, 0xfa, 0x09, 0xf7, 0xf2, 0xef, 0x07, 0xc3, 0x1e, 0x22, 0x1a, 0xf8,
  0xf2, 0x39, 0x0b, 0x1f, 0xe1, 0xf7, 0x1c, 0x19, 0x5c, 0x11, 0x12, 0x09,
  0x08, 0x0e, 0x1e, 0x1a, 0x1a, 0x47, 0xce, 0xef, 0x1b, 0xeb, 0x32, 0x36,
  0x04, 0x36, 0xeb, 0xba, 0xf3, 0xf9, 0xe8, 0x0a, 0xe1, 0x01, 0x2f, 0x26,
  0xda, 0xf5, 0x19, 0x1e, 0xfe, 0x0f, 0x09, 0xd4, 0x1d, 0x09, 0x30, 0x0a,
  0x08, 0xff, 0x07, 0x14, 0x81, 0xfc, 0x12, 0xe9, 0xff, 0xf0, 0x08, 0xf0,
  0x1d, 0x16, 0x19, 0xfa, 0x21, 0x2b, 0xed, 0x15, 0xcc, 0x02, 0x1c, 0x0d,
  0x1e, 0x29, 0x14, 0x15, 0x4a, 0xf5, 0x1f, 0x1d, 0x2c, 0x27, 0xbe, 0xd9,
  0x2d, 0xde, 0x1e, 0x2f, 0x34, 0xe7, 0xea, 0xdd, 0xe5, 0xe6, 0x01, 0x25,
  0xdc, 0x09, 0x45, 0x23, 0xe4, 0xfe, 0x3f, 0x19, 0x0f, 0xe9, 0x20, 0xf4,
  0x0f, 0xff, 0x0a, 0x18, 0x18, 0x20, 0x40, 0x34, 0xe5, 0x17, 0x18, 0xfc,
  0x2f, 0x35, 0x11, 0xfe, 0xfc, 0xfa, 0x22, 0x2f, 0x02, 0x01, 0x18, 0x14,
  0xe1, 0xee, 0x05, 0xf5, 0x09, 0x04, 0xc5, 0xc2, 0xee, 0xfc, 0xd3, 0x13,
  0xf2, 0xe9, 0x2a, 0x11, 0xcb, 0x17, 0xfb, 0xf7, 0xf8, 0xd4, 0x09, 0x0e,
  0x13, 0xe0, 0xfa, 0x03, 0xe4, 0xe6, 0xf0, 0xe4, 0xea, 0xf9, 0xd5, 0xf2,
  0x0c, 0x14, 0x06, 0x0e, 0xf7, 0xd7, 0xf9, 0x1d, 0xfa, 0xf4, 0xec, 0xfa,
  0x0b, 0x18, 0xf5, 0x0c, 0xad, 0xf2, 0xf0, 0xdd, 0xf0, 0xf4, 0x04, 0xfe,
  0xe3, 0xd9, 0x12, 0xf3, 0xf3, 0xe9, 0x25, 0x0c, 0x0e, 0x13, 0xd3, 0xbe,
  0xf4, 0x04, 0xa7, 0xd3, 0x0f, 0x08, 0xf6, 0x0a, 0xd2, 0xb4, 0x0f, 0x10,
  0xdd, 0xf1, 0x03, 0xd9, 0x0d, 0xaf, 0x0f, 0xc6, 0xc7, 0x07, 0x0e, 0xff,
  0x0c, 0xe0, 0xdd, 0xc7, 0xf9, 0x05, 0x0d, 0xfd, 0xf5, 0x0d, 0xec, 0xeb,
  0xf7, 0x10, 0xe8, 0x00, 0xe2, 0xdf, 0x12, 0x0f, 0x10, 0xf3, 0xe7, 0xee,
  0xf3, 0xd2, 0x07, 0x01, 0xed, 0x1a, 0x07, 0x18, 0xf4, 0xf3, 0xf5, 0xf9,
  0x0c, 0x27, 0xf0, 0xf3, 0x12, 0x11, 0xe7, 0xe8, 0x10, 0x24, 0xcc, 0xdf,
  0x28, 0x86, 0x0c, 0x2c, 0x14, 0xed, 0xd3, 0xb7, 0xea, 0xe9, 0x02, 0xd7,
  0x04, 0xdc, 0xfe, 0x11, 0xcb, 0xe7, 0xd1, 0xfd, 0xe0, 0x07, 0xf3, 0xd7,
  0xe9, 0x22, 0x09, 0xe7, 0xe1, 0x2b, 0xd7, 0xcf, 0xdc, 0xd0, 0x16, 0x16,
  0x14, 0xff, 0xf3, 0xe1, 0xce, 0xfb, 0xd5, 0xde, 0x17, 0xe3, 0xe7, 0xfa,
  0xb9, 0xfe, 0x05, 0xec, 0xfb, 0x20, 0xeb, 0x17, 0x0c, 0xd5, 0x11, 0xed,
  0x18, 0xfa, 0xaf, 0x97, 0x36, 0xab, 0xfe, 0x03, 0x1e, 0x01, 0xdf, 0x07,
  0xe4, 0x2d, 0xd6, 0xef, 0x0f, 0xec, 0xf6, 0x09, 0xde, 0x10, 0xde, 0xfc,
  0xec, 0xff, 0xf2, 0x18, 0xf8, 0xf4, 0xfb, 0xf0, 0xd7, 0x16, 0x09, 0xfa,
  0xf5, 0xe8, 0xed, 0xfd, 0x27, 0xf0, 0x06, 0xea, 0xf4, 0xf0, 0x02, 0x11,
  0x00, 0x0f, 0xff, 0xf4, 0xce, 0x0a, 0x04, 0xc9, 0xee, 0x19, 0xd8, 0x17,
  0x18, 0xeb, 0x06, 0xe7, 0x16, 0xf2, 0x9e, 0xf8, 0x43, 0xbc, 0x15, 0xf4,
  0x15, 0xf5, 0xe6, 0xdf, 0xf4, 0x1e, 0xe4, 0xf0, 0x17, 0xd7, 0xf6, 0x0e,
  0xf0, 0xf6, 0xf6, 0xea, 0xe8, 0x06, 0xf0, 0x02, 0x01, 0xfb, 0x05, 0x01,
  0xe7, 0x05, 0x1c, 0x16, 0xda, 0x0c, 0x05, 0xcb, 0x1a, 0x1b, 0x07, 0x22,
  0x48, 0x04, 0x09, 0xe6, 0x35, 0x39, 0xee, 0xde, 0x0f, 0xf7, 0x19, 0x16,
  0xf3, 0x18, 0xde, 0x08, 0x24, 0xda, 0x06, 0xc8, 0x22, 0x08, 0xdf, 0xf4,
  0x3a, 0xc8, 0x08, 0x19, 0x17, 0xff, 0xe1, 0xf3, 0xc3, 0x25, 0xe4, 0xde,
  0x14, 0xe1, 0xf2, 0x11, 0x14, 0xe6, 0xf2, 0xf5, 0x0c, 0x11, 0x05, 0xfb,
  0xf4, 0x04, 0xf8, 0xf3, 0xfc, 0x17, 0x0c, 0x1c, 0xd1, 0x17, 0x02, 0xfb,
  0x01, 0xe1, 0x05, 0x01, 0x10, 0xdc, 0x1c, 0xfe, 0x02, 0x1a, 0xfc, 0xe8,
  0x09, 0xe1, 0x20, 0x1b, 0x09, 0x24, 0xd9, 0x01, 0x32, 0xf1, 0xe9, 0xec,
  0x20, 0x07, 0xf3, 0xfb, 0x1b, 0xdf, 0x07, 0x15, 0x13, 0xe5, 0xdc, 0xec,
  0xe4, 0x3c, 0x03, 0xf9, 0x20, 0xe4, 0xd6, 0x12, 0x14, 0xe1, 0xf0, 0xdb,
  0xed, 0x0e, 0xf9, 0xd0, 0xd6, 0xed, 0xfd, 0xef, 0xfd, 0x0a, 0x03, 0xfc,
  0xd2, 0xff, 0xff, 0xe8, 0x19, 0xf7, 0x03, 0xd6, 0xc3, 0xc5, 0xfd, 0xf9,
  0xe8, 0xdc, 0xfe, 0x05, 0xde, 0xec, 0xf1, 0xeb, 0x11, 0x22, 0xea, 0x08,
  0x0c, 0xf1, 0x0f, 0x04, 0x0d, 0x0d, 0xc3, 0xe6, 0x1f, 0xa6, 0x0b, 0x0c,
  0x12, 0xd9, 0xe8, 0x04, 0xe4, 0x24, 0xef, 0x03, 0x1c, 0xeb, 0x06, 0x28,
  0xc1, 0xed, 0xf7, 0xd8, 0xf1, 0x01, 0x1d, 0xd2, 0xeb, 0xf8, 0x06, 0x0f,
  0xbf, 0x16, 0xfd, 0xf2, 0xd9, 0xf6, 0x0e, 0x06, 0x0b, 0xe9, 0xf5, 0xf5,
  0xb2, 0xfe, 0xd7, 0x11, 0xf4, 0xf9, 0xf5, 0x07, 0xd2, 0xe7, 0xff, 0xf7,
  0xfc, 0xf8, 0xdd, 0x25, 0x1e, 0xd4, 0x08, 0xd8, 0x12, 0x01, 0xfe, 0xb9,
  0x36, 0xd5, 0xe7, 0x19, 0x12, 0xfa, 0xdb, 0xf9, 0xcb, 0x08, 0xf6, 0xf6,
  0x2c, 0xee, 0xf6, 0x14, 0xd7, 0xeb, 0xd6, 0xe4, 0xef, 0x06, 0x06, 0x06,
  0xfe, 0xe5, 0x0d, 0xfc, 0xe3, 0x09, 0xf9, 0x12, 0x0a, 0x17, 0x01, 0x07,
  0x10, 0xd6, 0xe6, 0xfe, 0xd9, 0x19, 0xe1, 0xe2, 0x21, 0xe5, 0xe8, 0xfb,
  0x3b, 0xe0, 0xfc, 0xe8, 0xbe, 0xde, 0xfe, 0x13, 0xfb, 0xc9, 0x0f, 0xc5,
  0x23, 0xf0, 0x38, 0xc4, 0x28, 0x06, 0xcf, 0xeb, 0x1b, 0xfe, 0x03, 0x20,
  0x05, 0x1e, 0xf9, 0x0e, 0x1d, 0xdd, 0xe2, 0x09, 0x0a, 0xe5, 0xea, 0xed,
  0xfc, 0xed, 0xdc, 0x1d, 0xec, 0x17, 0xfa, 0x07, 0xe7, 0xf0, 0x1b, 0x18,
  0x46, 0x08, 0xed, 0xed, 0xe6, 0xf2, 0xf4, 0x17, 0xd6, 0xfd, 0xfa, 0xfb,
  0xcf, 0xf5, 0x03, 0xee, 0x39, 0xf5, 0xd6, 0x15, 0xa4, 0xd0, 0xf1, 0x1c,
  0x0f, 0xf5, 0x09, 0xe5, 0x00, 0xab, 0x2d, 0x08, 0x2e, 0x10, 0xc6, 0xed,
  0x07, 0xf5, 0x16, 0x13, 0x1a, 0x11, 0xfb, 0xee, 0x18, 0xff, 0xeb, 0xeb,
  0x0b, 0xed, 0xde, 0xec, 0xe4, 0xda, 0xff, 0x35, 0xe0, 0xed, 0xe9, 0xf9,
  0x04, 0xe9, 0xee, 0x00, 0x49, 0x10, 0xf5, 0x0e, 0x07, 0x03, 0xf7, 0x40,
  0xe5, 0xdb, 0xf2, 0x06, 0x19, 0xc9, 0xee, 0xe5, 0x26, 0x0a, 0xe9, 0xef,
  0xa9, 0xe8, 0xf3, 0xf1, 0xfb, 0xef, 0xeb, 0xe6, 0xe6, 0xb3, 0x34, 0x0f,
  0xec, 0x1e, 0xdb, 0xd9, 0x00, 0xda, 0x12, 0x45, 0x12, 0x06, 0x0a, 0xf7,
  0x1a, 0xf9, 0xd5, 0xdb, 0x1c, 0xfd, 0xe5, 0xe3, 0x09, 0xef, 0xf3, 0x36,
  0xe3, 0xf1, 0xd4, 0xfe, 0xee, 0x00, 0xf0, 0xe0, 0x7c, 0xfa, 0xff, 0x0b,
  0x04, 0x1a, 0xf4, 0x10, 0xde, 0xdf, 0xea, 0x11, 0xdc, 0xdd, 0x18, 0xef,
  0x2e, 0x0b, 0xe1, 0xf3, 0xd9, 0xda, 0xfe, 0xe9, 0xc0, 0x04, 0xde, 0xec,
  0xe0, 0xd1, 0x3e, 0x28, 0xc9, 0x15, 0xeb, 0xd5, 0xd7, 0x0f, 0x1d, 0x1c,
  0x20, 0x15, 0x08, 0xd9, 0x26, 0x04, 0xab, 0xda, 0x10, 0x0d, 0xcc, 0xdb,
  0xed, 0x1c, 0xe8, 0x15, 0xe6, 0x01, 0xed, 0xe7, 0xe0, 0xdd, 0xc4, 0xd6,
  0x16, 0xf7, 0xef, 0x03, 0xc7, 0xcd, 0xed, 0x03, 0x04, 0x02, 0xe0, 0xd5,
  0xfc, 0xfe, 0xe3, 0xed, 0x1b, 0x14, 0x0a, 0x02, 0x26, 0xff, 0xff, 0xff,
  0x04, 0x00, 0x00, 0x00, 0x08, 0x00, 0x00, 0x00, 0xf5, 0x1d, 0x00, 0x00,
  0x0b, 0xe2, 0xff, 0xff, 0x3a, 0xff, 0xff, 0xff, 0x04, 0x00, 0x00, 0x00,
  0x08, 0x00, 0x00, 0x00, 0xff, 0xff, 0xff, 0xff, 0x40, 0x03, 0x00, 0x00,
  0x4e, 0xff, 0xff, 0xff, 0x04, 0x00, 0x00, 0x00, 0x10, 0x00, 0x00, 0x00,
  0x01, 0x00, 0x00, 0x00, 0x32, 0x00, 0x00, 0x00, 0x0d, 0x00, 0x00, 0x00,
  0x01, 0x00, 0x00, 0x00, 0xe4, 0xf3, 0xff, 0xff, 0xe8, 0xf3, 0xff, 0xff,
  0x0f, 0x00, 0x00, 0x00, 0x4d, 0x4c, 0x49, 0x52, 0x20, 0x43, 0x6f, 0x6e,
  0x76, 0x65, 0x72, 0x74, 0x65, 0x64, 0x2e, 0x00, 0x01, 0x00, 0x00, 0x00,
  0x14, 0x00, 0x00, 0x00, 0x00, 0x00, 0x0e, 0x00, 0x18, 0x00, 0x14, 0x00,
  0x10, 0x00, 0x0c, 0x00, 0x08, 0x00, 0x04, 0x00, 0x0e, 0x00, 0x00, 0x00,
  0x14, 0x00, 0x00, 0x00, 0x1c, 0x00, 0x00, 0x00, 0x18, 0x02, 0x00, 0x00,
  0x1c, 0x02, 0x00, 0x00, 0x20, 0x02, 0x00, 0x00, 0x04, 0x00, 0x00, 0x00,
  0x6d, 0x61, 0x69, 0x6e, 0x00, 0x00, 0x00, 0x00, 0x08, 0x00, 0x00, 0x00,
  0xdc, 0x01, 0x00, 0x00, 0x80, 0x01, 0x00, 0x00, 0x20, 0x01, 0x00, 0x00,
  0xdc, 0x00, 0x00, 0x00, 0x9c, 0x00, 0x00, 0x00, 0x78, 0x00, 0x00, 0x00,
  0x40, 0x00, 0x00, 0x00, 0x04, 0x00, 0x00, 0x00, 0xaa, 0xfe, 0xff, 0xff,
  0x1c, 0x00, 0x00, 0x00, 0x00, 0x00, 0x00, 0x09, 0x1c, 0x00, 0x00, 0x00,
  0x20, 0x00, 0x00, 0x00, 0x04, 0x00, 0x00, 0x00, 0x00, 0x00, 0x06, 0x00,
  0x08, 0x00, 0x04, 0x00, 0x06, 0x00, 0x00, 0x00, 0x00, 0x00, 0x80, 0x3f,
  0x01, 0x00, 0x00, 0x00, 0x10, 0x00, 0x00, 0x00, 0x01, 0x00, 0x00, 0x00,
  0x0f, 0x00, 0x00, 0x00, 0xe2, 0xfe, 0xff, 0xff, 0x14, 0x00, 0x00, 0x00,
  0x00, 0x00, 0x00, 0x08, 0x10, 0x00, 0x00, 0x00, 0x14, 0x00, 0x00, 0x00,
  0x03, 0x00, 0x00, 0x00, 0xb0, 0xf4, 0xff, 0xff, 0x01, 0x00, 0x00, 0x00,
  0x0f, 0x00, 0x00, 0x00, 0x03, 0x00, 0x00, 0x00, 0x0e, 0x00, 0x00, 0x00,
  0x04, 0x00, 0x00, 0x00, 0x03, 0x00, 0x00, 0x00, 0xba, 0xfe, 0xff, 0xff,
  0x08, 0x00, 0x00, 0x00, 0x0c, 0x00, 0x00, 0x00, 0x01, 0x00, 0x00, 0x00,
  0x0e, 0x00, 0x00, 0x00, 0x02, 0x00, 0x00, 0x00, 0x0d, 0x00, 0x00, 0x00,
  0x02, 0x00, 0x00, 0x00, 0x36, 0xff, 0xff, 0xff, 0x14, 0x00, 0x00, 0x00,
  0x00, 0x00, 0x00, 0x05, 0x20, 0x00, 0x00, 0x00, 0x24, 0x00, 0x00, 0x00,
  0x02, 0x00, 0x00, 0x00, 0x82, 0xff, 0xff, 0xff, 0x02, 0x00, 0x00, 0x00,
  0x02, 0x00, 0x00, 0x00, 0x02, 0x00, 0x00, 0x00, 0x02, 0x00, 0x00, 0x00,
  0x01, 0x00, 0x00, 0x00, 0x0d, 0x00, 0x00, 0x00, 0x01, 0x00, 0x00, 0x00,
  0x0c, 0x00, 0x00, 0x00, 0x72, 0xff, 0xff, 0xff, 0x14, 0x00, 0x00, 0x00,
  0x00, 0x00, 0x00, 0x01, 0x1c, 0x00, 0x00, 0x00, 0x20, 0x00, 0x00, 0x00,
  0x01, 0x00, 0x00, 0x00, 0x64, 0xff, 0xff, 0xff, 0x00, 0x00, 0x00, 0x01,
  0x01, 0x00, 0x00, 0x00, 0x01, 0x00, 0x00, 0x00, 0x01, 0x00, 0x00, 0x00,
  0x0c, 0x00, 0x00, 0x00, 0x03, 0x00, 0x00, 0x00, 0x0b, 0x00, 0x00, 0x00,
  0x06, 0x00, 0x00, 0x00, 0x05, 0x00, 0x00, 0x00, 0xb2, 0xff, 0xff, 0xff,
  0x24, 0x00, 0x00, 0x00, 0x00, 0x00, 0x00, 0x05, 0x30, 0x00, 0x00, 0x00,
  0x34, 0x00, 0x00, 0x00, 0x02, 0x00, 0x00, 0x00, 0x00, 0x00, 0x0e, 0x00,
  0x14, 0x00, 0x00, 0x00, 0x10, 0x00, 0x0c, 0x00, 0x08, 0x00, 0x04, 0x00,
  0x0e, 0x00, 0x00, 0x00, 0x02, 0x00, 0x00, 0x00, 0x02, 0x00, 0x00, 0x00,
  0x02, 0x00, 0x00, 0x00, 0x02, 0x00, 0x00, 0x00, 0x01, 0x00, 0x00, 0x00,
  0x0b, 0x00, 0x00, 0x00, 0x01, 0x00, 0x00, 0x00, 0x0a, 0x00, 0x00, 0x00,
  0x00, 0x00, 0x0e, 0x00, 0x18, 0x00, 0x14, 0x00, 0x10, 0x00, 0x0c, 0x00,
  0x0b, 0x00, 0x04, 0x00, 0x0e, 0x00, 0x00, 0x00, 0x20, 0x00, 0x00, 0x00,
  0x00, 0x00, 0x00, 0x01, 0x28, 0x00, 0x00, 0x00, 0x2c, 0x00, 0x00, 0x00,
  0x01, 0x00, 0x00, 0x00, 0x0c, 0x00, 0x10, 0x00, 0x00, 0x00, 0x0c, 0x00,
  0x08, 0x00, 0x07, 0x00, 0x0c, 0x00, 0x00, 0x00, 0x00, 0x00, 0x00, 0x01,
  0x01, 0x00, 0x00, 0x00, 0x01, 0x00, 0x00, 0x00, 0x01, 0x00, 0x00, 0x00,
  0x0a, 0x00, 0x00, 0x00, 0x03, 0x00, 0x00, 0x00, 0x09, 0x00, 0x00, 0x00,
  0x08, 0x00, 0x00, 0x00, 0x07, 0x00, 0x00, 0x00, 0x00, 0x00, 0x0a, 0x00,
  0x0c, 0x00, 0x00, 0x00, 0x08, 0x00, 0x04, 0x00, 0x0a, 0x00, 0x00, 0x00,
  0x08, 0x00, 0x00, 0x00, 0x0c, 0x00, 0x00, 0x00, 0x01, 0x00, 0x00, 0x00,
  0x09, 0x00, 0x00, 0x00, 0x02, 0x00, 0x00, 0x00, 0x00, 0x00, 0x00, 0x00,
  0x01, 0x00, 0x00, 0x00, 0x01, 0x00, 0x00, 0x00, 0x10, 0x00, 0x00, 0x00,
  0x01, 0x00, 0x00, 0x00, 0x00, 0x00, 0x00, 0x00, 0x11, 0x00, 0x00, 0x00,
  0x00, 0x0a, 0x00, 0x00, 0x90, 0x09, 0x00, 0x00, 0x44, 0x09, 0x00, 0x00,
  0xc8, 0x08, 0x00, 0x00, 0x5c, 0x08, 0x00, 0x00, 0x30, 0x07, 0x00, 0x00,
  0x04, 0x06, 0x00, 0x00, 0x38, 0x05, 0x00, 0x00, 0x6c, 0x04, 0x00, 0x00,
  0xf8, 0x03, 0x00, 0x00, 0x2c, 0x03, 0x00, 0x00, 0xb0, 0x02, 0x00, 0x00,
  0xdc, 0x01, 0x00, 0x00, 0x60, 0x01, 0x00, 0x00, 0xf4, 0x00, 0x00, 0x00,
  0x70, 0x00, 0x00, 0x00, 0x04, 0x00, 0x00, 0x00, 0x5a, 0xf6, 0xff, 0xff,
  0x00, 0x00, 0x00, 0x01, 0x14, 0x00, 0x00, 0x00, 0x30, 0x00, 0x00, 0x00,
  0x11, 0x00, 0x00, 0x00, 0x00, 0x00, 0x00, 0x09, 0x44, 0x00, 0x00, 0x00,
  0x44, 0xf6, 0xff, 0xff, 0x08, 0x00, 0x00, 0x00, 0x10, 0x00, 0x00, 0x00,
  0x01, 0x00, 0x00, 0x00, 0x80, 0xff, 0xff, 0xff, 0xff, 0xff, 0xff, 0xff,
  0x01, 0x00, 0x00, 0x00, 0x00, 0x00, 0x80, 0x3b, 0x19, 0x00, 0x00, 0x00,
  0x53, 0x74, 0x61, 0x74, 0x65, 0x66, 0x75, 0x6c, 0x50, 0x61, 0x72, 0x74,
  0x69, 0x74, 0x69, 0x6f, 0x6e, 0x65, 0x64, 0x43, 0x61, 0x6c, 0x6c, 0x3a,
  0x30, 0x00, 0x00, 0x00, 0x02, 0x00, 0x00, 0x00, 0x01, 0x00, 0x00, 0x00,
  0x02, 0x00, 0x00, 0x00, 0xc2, 0xf6, 0xff, 0xff, 0x00, 0x00, 0x00, 0x01,
  0x14, 0x00, 0x00, 0x00, 0x30, 0x00, 0x00, 0x00, 0x10, 0x00, 0x00, 0x00,
  0x00, 0x00, 0x00, 0x09, 0x5c, 0x00, 0x00, 0x00, 0xac, 0xf6, 0xff, 0xff,
  0x08, 0x00, 0x00, 0x00, 0x10, 0x00, 0x00, 0x00, 0x01, 0x00, 0x00, 0x00,
  0x00, 0x00, 0x00, 0x00, 0x00, 0x00, 0x00, 0x00, 0x01, 0x00, 0x00, 0x00,
  0xde, 0x77, 0xf7, 0x3d, 0x32, 0x00, 0x00, 0x00, 0x73, 0x65, 0x71, 0x75,
  0x65, 0x6e, 0x74, 0x69, 0x61, 0x6c, 0x2f, 0x79, 0x5f, 0x70, 0x72, 0x65,
  0x64, 0x2f, 0x4d, 0x61, 0x74, 0x4d, 0x75, 0x6c, 0x3b, 0x73, 0x65, 0x71,
  0x75, 0x65, 0x6e, 0x74, 0x69, 0x61, 0x6c, 0x2f, 0x79, 0x5f, 0x70, 0x72,
  0x65, 0x64, 0x2f, 0x42, 0x69, 0x61, 0x73, 0x41, 0x64, 0x64, 0x00, 0x00,
  0x02, 0x00, 0x00, 0x00, 0x01, 0x00, 0x00, 0x00, 0x02, 0x00, 0x00, 0x00,
  0x42, 0xf7, 0xff, 0xff, 0x00, 0x00, 0x00, 0x01, 0x14, 0x00, 0x00, 0x00,
  0x30, 0x00, 0x00, 0x00, 0x0f, 0x00, 0x00, 0x00, 0x00, 0x00, 0x00, 0x09,
  0x44, 0x00, 0x00, 0x00, 0x2c, 0xf7, 0xff, 0xff, 0x08, 0x00, 0x00, 0x00,
  0x10, 0x00, 0x00, 0x00, 0x01, 0x00, 0x00, 0x00, 0x80, 0xff, 0xff, 0xff,
  0xff, 0xff, 0xff, 0xff, 0x01, 0x00, 0x00, 0x00, 0x22, 0x57, 0x82, 0x3c,
  0x1a, 0x00, 0x00, 0x00, 0x73, 0x65, 0x71, 0x75, 0x65, 0x6e, 0x74, 0x69,
  0x61, 0x6c, 0x2f, 0x66, 0x6c, 0x61, 0x74, 0x74, 0x65, 0x6e, 0x2f, 0x52,
  0x65, 0x73, 0x68, 0x61, 0x70, 0x65, 0x00, 0x00, 0x02, 0x00, 0x00, 0x00,
  0x01, 0x00, 0x00, 0x00, 0x40, 0x03, 0x00, 0x00, 0xaa, 0xf7, 0xff, 0xff,
  0x00, 0x00, 0x00, 0x01, 0x14, 0x00, 0x00, 0x00, 0x30, 0x00, 0x00, 0x00,
  0x0e, 0x00, 0x00, 0x00, 0x00, 0x00, 0x00, 0x09, 0x4c, 0x00, 0x00, 0x00,
  0x94, 0xf7, 0xff, 0xff, 0x08, 0x00, 0x00, 0x00, 0x10, 0x00, 0x00, 0x00,
  0x01, 0x00, 0x00, 0x00, 0x80, 0xff, 0xff, 0xff, 0xff, 0xff, 0xff, 0xff,
  0x01, 0x00, 0x00, 0x00, 0x22, 0x57, 0x82, 0x3c, 0x22, 0x00, 0x00, 0x00,
  0x73, 0x65, 0x71, 0x75, 0x65, 0x6e, 0x74, 0x69, 0x61, 0x6c, 0x2f, 0x6d,
  0x61, 0x78, 0x5f, 0x70, 0x6f, 0x6f, 0x6c, 0x69, 0x6e, 0x67, 0x32, 0x64,
  0x5f, 0x31, 0x2f, 0x4d, 0x61, 0x78, 0x50, 0x6f, 0x6f, 0x6c, 0x00, 0x00,
  0x04, 0x00, 0x00, 0x00, 0x01, 0x00, 0x00, 0x00, 0x0d, 0x00, 0x00, 0x00,
  0x04, 0x00, 0x00, 0x00, 0x10, 0x00, 0x00, 0x00, 0x22, 0xf8, 0xff, 0xff,
  0x00, 0x00, 0x00, 0x01, 0x14, 0x00, 0x00, 0x00, 0x30, 0x00, 0x00, 0x00,
  0x0d, 0x00, 0x00, 0x00, 0x00, 0x00, 0x00, 0x09, 0xa4, 0x00, 0x00, 0x00,
  0x0c, 0xf8, 0xff, 0xff, 0x08, 0x00, 0x00, 0x00, 0x10, 0x00, 0x00, 0x00,
  0x01, 0x00, 0x00, 0x00, 0x80, 0xff, 0xff, 0xff, 0xff, 0xff, 0xff, 0xff,
  0x01, 0x00, 0x00, 0x00, 0x22, 0x57, 0x82, 0x3c, 0x7a, 0x00, 0x00, 0x00,
  0x73, 0x65, 0x71, 0x75, 0x65, 0x6e, 0x74, 0x69, 0x61, 0x6c, 0x2f, 0x63,
  0x6f, 0x6e, 0x76, 0x32, 0x64, 0x5f, 0x31, 0x2f, 0x52, 0x65, 0x6c, 0x75,
  0x3b, 0x73, 0x65, 0x71, 0x75, 0x65, 0x6e, 0x74, 0x69, 0x61, 0x6c, 0x2f,
  0x63, 0x6f, 0x6e, 0x76, 0x32, 0x64, 0x5f, 0x31, 0x2f, 0x42, 0x69, 0x61,
  0x73, 0x41, 0x64, 0x64, 0x3b, 0x73, 0x65, 0x71, 0x75, 0x65, 0x6e, 0x74,
  0x69, 0x61, 0x6c, 0x2f, 0x63, 0x6f, 0x6e, 0x76, 0x32, 0x64, 0x5f, 0x31,
  0x2f, 0x43, 0x6f, 0x6e, 0x76, 0x32, 0x44, 0x3b, 0x73, 0x65, 0x71, 0x75,
  0x65, 0x6e, 0x74, 0x69, 0x61, 0x6c, 0x2f, 0x63, 0x6f, 0x6e, 0x76, 0x32,
  0x64, 0x5f, 0x31, 0x2f, 0x42, 0x69, 0x61, 0x73, 0x41, 0x64, 0x64, 0x2f,
  0x52, 0x65, 0x61, 0x64, 0x56, 0x61, 0x72, 0x69, 0x61, 0x62, 0x6c, 0x65,
  0x4f, 0x70, 0x00, 0x00, 0x04, 0x00, 0x00, 0x00, 0x01, 0x00, 0x00, 0x00,
  0x19, 0x00, 0x00, 0x00, 0x07, 0x00, 0x00, 0x00, 0x10, 0x00, 0x00, 0x00,
  0xf2, 0xf8, 0xff, 0xff, 0x00, 0x00, 0x00, 0x01, 0x14, 0x00, 0x00, 0x00,
  0x30, 0x00, 0x00, 0x00, 0x0c, 0x00, 0x00, 0x00, 0x00, 0x00, 0x00, 0x09,
  0x4c, 0x00, 0x00, 0x00, 0xdc, 0xf8, 0xff, 0xff, 0x08, 0x00, 0x00, 0x00,
  0x10, 0x00, 0x00, 0x00, 0x01, 0x00, 0x00, 0x00, 0x80, 0xff, 0xff, 0xff,
  0xff, 0xff, 0xff, 0xff, 0x01, 0x00, 0x00, 0x00, 0x70, 0x1e, 0x37, 0x3c,
  0x20, 0x00, 0x00, 0x00, 0x73, 0x65, 0x71, 0x75, 0x65, 0x6e, 0x74, 0x69,
  0x61, 0x6c, 0x2f, 0x6d, 0x61, 0x78, 0x5f, 0x70, 0x6f, 0x6f, 0x6c, 0x69,
  0x6e, 0x67, 0x32, 0x64, 0x2f, 0x4d, 0x61, 0x78, 0x50, 0x6f, 0x6f, 0x6c,
  0x00, 0x00, 0x00, 0x00, 0x04, 0x00, 0x00, 0x00, 0x01, 0x00, 0x00, 0x00,
  0x19, 0x00, 0x00, 0x00, 0x07, 0x00, 0x00, 0x00, 0x08, 0x00, 0x00, 0x00,
  0x6a, 0xf9, 0xff, 0xff, 0x00, 0x00, 0x00, 0x01, 0x14, 0x00, 0x00, 0x00,
  0x30, 0x00, 0x00, 0x00, 0x0b, 0x00, 0x00, 0x00, 0x00, 0x00, 0x00, 0x09,
  0x9c, 0x00, 0x00, 0x00, 0x54, 0xf9, 0xff, 0xff, 0x08, 0x00, 0x00, 0x00,
  0x10, 0x00, 0x00, 0x00, 0x01, 0x00, 0x00, 0x00, 0x80, 0xff, 0xff, 0xff,
  0xff, 0xff, 0xff, 0xff, 0x01, 0x00, 0x00, 0x00, 0x70, 0x1e, 0x37, 0x3c,
  0x72, 0x00, 0x00, 0x00, 0x73, 0x65, 0x71, 0x75, 0x65, 0x6e, 0x74, 0x69,
  0x61, 0x6c, 0x2f, 0x63, 0x6f, 0x6e, 0x76, 0x32, 0x64, 0x2f, 0x52, 0x65,
  0x6c, 0x75, 0x3b, 0x73, 0x65, 0x71, 0x75, 0x65, 0x6e, 0x74, 0x69, 0x61,
  0x6c, 0x2f, 0x63, 0x6f, 0x6e, 0x76, 0x32, 0x64, 0x2f, 0x42, 0x69, 0x61,
  0x73, 0x41, 0x64, 0x64, 0x3b, 0x73, 0x65, 0x71, 0x75, 0x65, 0x6e, 0x74,
  0x69, 0x61, 0x6c, 0x2f, 0x63, 0x6f, 0x6e, 0x76, 0x32, 0x64, 0x2f, 0x43,
  0x6f, 0x6e, 0x76, 0x32, 0x44, 0x3b, 0x73, 0x65, 0x71, 0x75, 0x65, 0x6e,
  0x74, 0x69, 0x61, 0x6c, 0x2f, 0x63, 0x6f, 0x6e, 0x76, 0x32, 0x64, 0x2f,
  0x42, 0x69, 0x61, 0x73, 0x41, 0x64, 0x64, 0x2f, 0x52, 0x65, 0x61, 0x64,
  0x56, 0x61, 0x72, 0x69, 0x61, 0x62, 0x6c, 0x65, 0x4f, 0x70, 0x00, 0x00,
  0x04, 0x00, 0x00, 0x00, 0x01, 0x00, 0x00, 0x00, 0x32, 0x00, 0x00, 0x00,
  0x0d, 0x00, 0x00, 0x00, 0x08, 0x00, 0x00, 0x00, 0x32, 0xfa, 0xff, 0xff,
  0x00, 0x00, 0x00, 0x01, 0x14, 0x00, 0x00, 0x00, 0x30, 0x00, 0x00, 0x00,
  0x0a, 0x00, 0x00, 0x00, 0x00, 0x00, 0x00, 0x09, 0x44, 0x00, 0x00, 0x00,
  0x1c, 0xfa, 0xff, 0xff, 0x08, 0x00, 0x00, 0x00, 0x10, 0x00, 0x00, 0x00,
  0x01, 0x00, 0x00, 0x00, 0xfb, 0xff, 0xff, 0xff, 0xff, 0xff, 0xff, 0xff,
  0x01, 0x00, 0x00, 0x00, 0x44, 0x62, 0x28, 0x3d, 0x1a, 0x00, 0x00, 0x00,
  0x73, 0x65, 0x71, 0x75, 0x65, 0x6e, 0x74, 0x69, 0x61, 0x6c, 0x2f, 0x72,
  0x65, 0x73, 0x68, 0x61, 0x70, 0x65, 0x2f, 0x52, 0x65, 0x73, 0x68, 0x61,
  0x70, 0x65, 0x00, 0x00, 0x04, 0x00, 0x00, 0x00, 0x01, 0x00, 0x00, 0x00,
  0x32, 0x00, 0x00, 0x00, 0x0d, 0x00, 0x00, 0x00, 0x01, 0x00, 0x00, 0x00,
  0xa2, 0xfa, 0xff, 0xff, 0x00, 0x00, 0x00, 0x01, 0x14, 0x00, 0x00, 0x00,
  0x88, 0x00, 0x00, 0x00, 0x09, 0x00, 0x00, 0x00, 0x00, 0x00, 0x00, 0x09,
  0x9c, 0x00, 0x00, 0x00, 0x8c, 0xfa, 0xff, 0xff, 0x08, 0x00, 0x00, 0x00,
  0x4c, 0x00, 0x00, 0x00, 0x08, 0x00, 0x00, 0x00, 0x00, 0x00, 0x00, 0x00,
  0x00, 0x00, 0x00, 0x00, 0x00, 0x00, 0x00, 0x00, 0x00, 0x00, 0x00, 0x00,
  0x00, 0x00, 0x00, 0x00, 0x00, 0x00, 0x00, 0x00, 0x00, 0x00, 0x00, 0x00,
  0x00, 0x00, 0x00, 0x00, 0x00, 0x00, 0x00, 0x00, 0x00, 0x00, 0x00, 0x00,
  0x00, 0x00, 0x00, 0x00, 0x00, 0x00, 0x00, 0x00, 0x00, 0x00, 0x00, 0x00,
  0x00, 0x00, 0x00, 0x00, 0x00, 0x00, 0x00, 0x00, 0x00, 0x00, 0x00, 0x00,
  0x00, 0x00, 0x00, 0x00, 0x08, 0x00, 0x00, 0x00, 0x4d, 0x41, 0x24, 0x3b,
  0xd6, 0x26, 0x1a, 0x3b, 0xae, 0x73, 0x18, 0x3b, 0x5c, 0x2a, 0x0a, 0x3b,
  0x3a, 0x55, 0x29, 0x3b, 0xc5, 0x90, 0x67, 0x3b, 0x84, 0xf3, 0x68, 0x3b,
  0x8d, 0xc9, 0x13, 0x3b, 0x18, 0x00, 0x00, 0x00, 0x73, 0x65, 0x71, 0x75,
  0x65, 0x6e, 0x74, 0x69, 0x61, 0x6c, 0x2f, 0x63, 0x6f, 0x6e, 0x76, 0x32,
  0x64, 0x2f, 0x43, 0x6f, 0x6e, 0x76, 0x32, 0x44, 0x00, 0x00, 0x00, 0x00,
  0x04, 0x00, 0x00, 0x00, 0x08, 0x00, 0x00, 0x00, 0x03, 0x00, 0x00, 0x00,
  0x03, 0x00, 0x00, 0x00, 0x01, 0x00, 0x00, 0x00, 0x6a, 0xfb, 0xff, 0xff,
  0x00, 0x00, 0x00, 0x01, 0x14, 0x00, 0x00, 0x00, 0x84, 0x00, 0x00, 0x00,
  0x08, 0x00, 0x00, 0x00, 0x00, 0x00, 0x00, 0x02, 0xa8, 0x00, 0x00, 0x00,
  0x54, 0xfb, 0xff, 0xff, 0x08, 0x00, 0x00, 0x00, 0x48, 0x00, 0x00, 0x00,
  0x08, 0x00, 0x00, 0x00, 0x00, 0x00, 0x00, 0x00, 0x00, 0x00, 0x00, 0x00,
  0x00, 0x00, 0x00, 0x00, 0x00, 0x00, 0x00, 0x00, 0x00, 0x00, 0x00, 0x00,
  0x00, 0x00, 0x00, 0x00, 0x00, 0x00, 0x00, 0x00, 0x00, 0x00, 0x00, 0x00,
  0x00, 0x00, 0x00, 0x00, 0x00, 0x00, 0x00, 0x00, 0x00, 0x00, 0x00, 0x00,
  0x00, 0x00, 0x00, 0x00, 0x00, 0x00, 0x00, 0x00, 0x00, 0x00, 0x00, 0x00,
  0x00, 0x00, 0x00, 0x00, 0x00, 0x00, 0x00, 0x00, 0x08, 0x00, 0x00, 0x00,
  0xce, 0x13, 0xd8, 0x38, 0x51, 0xc9, 0xca, 0x38, 0xde, 0x8c, 0xc8, 0x38,
  0xab, 0xc1, 0xb5, 0x38, 0xdb, 0xc1, 0xde, 0x38, 0xe4, 0x4f, 0x18, 0x39,
  0x3a, 0x39, 0x19, 0x39, 0xfe, 0x69, 0xc2, 0x38, 0x28, 0x00, 0x00, 0x00,
  0x73, 0x65, 0x71, 0x75, 0x65, 0x6e, 0x74, 0x69, 0x61, 0x6c, 0x2f, 0x63,
  0x6f, 0x6e, 0x76, 0x32, 0x64, 0x2f, 0x42, 0x69, 0x61, 0x73, 0x41, 0x64,
  0x64, 0x2f, 0x52, 0x65, 0x61, 0x64, 0x56, 0x61, 0x72, 0x69, 0x61, 0x62,
  0x6c, 0x65, 0x4f, 0x70, 0x00, 0x00, 0x00, 0x00, 0x01, 0x00, 0x00, 0x00,
  0x08, 0x00, 0x00, 0x00, 0x32, 0xfc, 0xff, 0xff, 0x00, 0x00, 0x00, 0x01,
  0x14, 0x00, 0x00, 0x00, 0xe8, 0x00, 0x00, 0x00, 0x07, 0x00, 0x00, 0x00,
  0x00, 0x00, 0x00, 0x09, 0xfc, 0x00, 0x00, 0x00, 0x1c, 0xfc, 0xff, 0xff,
  0x08, 0x00, 0x00, 0x00, 0x8c, 0x00, 0x00, 0x00, 0x10, 0x00, 0x00, 0x00,
  0x00, 0x00, 0x00, 0x00, 0x00, 0x00, 0x00, 0x00, 0x00, 0x00, 0x00, 0x00,
  0x00, 0x00, 0x00, 0x00, 0x00, 0x00, 0x00, 0x00, 0x00, 0x00, 0x00, 0x00,
  0x00, 0x00, 0x00, 0x00, 0x00, 0x00, 0x00, 0x00, 0x00, 0x00, 0x00, 0x00,
  0x00, 0x00, 0x00, 0x00, 0x00, 0x00, 0x00, 0x00, 0x00, 0x00, 0x00, 0x00,
  0x00, 0x00, 0x00, 0x00, 0x00, 0x00, 0x00, 0x00, 0x00, 0x00, 0x00, 0x00,
  0x00, 0x00, 0x00, 0x00, 0x00, 0x00, 0x00, 0x00, 0x00, 0x00, 0x00, 0x00,
  0x00, 0x00, 0x00, 0x00, 0x00, 0x00, 0x00, 0x00, 0x00, 0x00, 0x00, 0x00,
  0x00, 0x00, 0x00, 0x00, 0x00, 0x00, 0x00, 0x00, 0x00, 0x00, 0x00, 0x00,
  0x00, 0x00, 0x00, 0x00, 0x00, 0x00, 0x00, 0x00, 0x00, 0x00, 0x00, 0x00,
  0x00, 0x00, 0x00, 0x00, 0x00, 0x00, 0x00, 0x00, 0x00, 0x00, 0x00, 0x00,
  0x00, 0x00, 0x00, 0x00, 0x00, 0x00, 0x00, 0x00, 0x00, 0x00, 0x00, 0x00,
  0x10, 0x00, 0x00, 0x00, 0xc4, 0x5c, 0xe5, 0x3b, 0x15, 0xd5, 0xfc, 0x3b,
  0xab, 0xd7, 0xcb, 0x3b, 0xd3, 0xfe, 0xd8, 0x3b, 0xb4, 0xbb, 0xb4, 0x3b,
  0xf0, 0xa1, 0xf1, 0x3b, 0x8a, 0x53, 0xbf, 0x3b, 0xb5, 0xcc, 0xbf, 0x3b,
  0xaf, 0x4d, 0xee, 0x3b, 0x95, 0x9b, 0xf9, 0x3b, 0xf6, 0x34, 0xcf, 0x3b,
  0xa9, 0x55, 0xc8, 0x3b, 0xd3, 0x28, 0xeb, 0x3b, 0x67, 0x94, 0xc3, 0x3b,
  0x05, 0x68, 0xe6, 0x3b, 0xfb, 0xf4, 0xeb, 0x3b, 0x1a, 0x00, 0x00, 0x00,
  0x73, 0x65, 0x71, 0x75, 0x65, 0x6e, 0x74, 0x69, 0x61, 0x6c, 0x2f, 0x63,
  0x6f, 0x6e, 0x76, 0x32, 0x64, 0x5f, 0x31, 0x2f, 0x43, 0x6f, 0x6e, 0x76,
  0x32, 0x44, 0x00, 0x00, 0x04, 0x00, 0x00, 0x00, 0x10, 0x00, 0x00, 0x00,
  0x03, 0x00, 0x00, 0x00, 0x03, 0x00, 0x00, 0x00, 0x08, 0x00, 0x00, 0x00,
  0x5a, 0xfd, 0xff, 0xff, 0x00, 0x00, 0x00, 0x01, 0x14, 0x00, 0x00, 0x00,
  0xe4, 0x00, 0x00, 0x00, 0x06, 0x00, 0x00, 0x00, 0x00, 0x00, 0x00, 0x02,
  0x08, 0x01, 0x00, 0x00, 0x44, 0xfd, 0xff, 0xff, 0x08, 0x00, 0x00, 0x00,
  0x88, 0x00, 0x00, 0x00, 0x10, 0x00, 0x00, 0x00, 0x00, 0x00, 0x00, 0x00,
  0x00, 0x00, 0x00, 0x00, 0x00, 0x00, 0x00, 0x00, 0x00, 0x00, 0x00, 0x00,
  0x00, 0x00, 0x00, 0x00, 0x00, 0x00, 0x00, 0x00, 0x00, 0x00, 0x00, 0x00,
  0x00, 0x00, 0x00, 0x00, 0x00, 0x00, 0x00, 0x00, 0x00, 0x00, 0x00, 0x00,
  0x00, 0x00, 0x00, 0x00, 0x00, 0x00, 0x00, 0x00, 0x00, 0x00, 0x00, 0x00,
  0x00, 0x00, 0x00, 0x00, 0x00, 0x00, 0x00, 0x00, 0x00, 0x00, 0x00, 0x00,
  0x00, 0x00, 0x00, 0x00, 0x00, 0x00, 0x00, 0x00, 0x00, 0x00, 0x00, 0x00,
  0x00, 0x00, 0x00, 0x00, 0x00, 0x00, 0x00, 0x00, 0x00, 0x00, 0x00, 0x00,
  0x00, 0x00, 0x00, 0x00, 0x00, 0x00, 0x00, 0x00, 0x00, 0x00, 0x00, 0x00,
  0x00, 0x00, 0x00, 0x00, 0x00, 0x00, 0x00, 0x00, 0x00, 0x00, 0x00, 0x00,
  0x00, 0x00, 0x00, 0x00, 0x00, 0x00, 0x00, 0x00, 0x00, 0x00, 0x00, 0x00,
  0x00, 0x00, 0x00, 0x00, 0x10, 0x00, 0x00, 0x00, 0x95, 0x10, 0xa4, 0x38,
  0x62, 0xda, 0xb4, 0x38, 0x68, 0xcf, 0x91, 0x38, 0xf6, 0x37, 0x9b, 0x38,
  0xab, 0x47, 0x81, 0x38, 0x7d, 0xd7, 0xac, 0x38, 0x77, 0xdb, 0x88, 0x38,
  0x23, 0x32, 0x89, 0x38, 0xdd, 0x75, 0xaa, 0x38, 0xe5, 0x8b, 0xb2, 0x38,
  0x7f, 0x37, 0x94, 0x38, 0x0d, 0x4d, 0x8f, 0x38, 0x24, 0x36, 0xa8, 0x38,
  0x57, 0xe6, 0x8b, 0x38, 0xc1, 0xcf, 0xa4, 0x38, 0x2d, 0xc8, 0xa8, 0x38,
  0x2a, 0x00, 0x00, 0x00, 0x73, 0x65, 0x71, 0x75, 0x65, 0x6e, 0x74, 0x69,
  0x61, 0x6c, 0x2f, 0x63, 0x6f, 0x6e, 0x76, 0x32, 0x64, 0x5f, 0x31, 0x2f,
  0x42, 0x69, 0x61, 0x73, 0x41, 0x64, 0x64, 0x2f, 0x52, 0x65, 0x61, 0x64,
  0x56, 0x61, 0x72, 0x69, 0x61, 0x62, 0x6c, 0x65, 0x4f, 0x70, 0x00, 0x00,
  0x01, 0x00, 0x00, 0x00, 0x10, 0x00, 0x00, 0x00, 0x82, 0xfe, 0xff, 0xff,
  0x00, 0x00, 0x00, 0x01, 0x14, 0x00, 0x00, 0x00, 0x30, 0x00, 0x00, 0x00,
  0x05, 0x00, 0x00, 0x00, 0x00, 0x00, 0x00, 0x09, 0x44, 0x00, 0x00, 0x00,
  0x6c, 0xfe, 0xff, 0xff, 0x08, 0x00, 0x00, 0x00, 0x10, 0x00, 0x00, 0x00,
  0x01, 0x00, 0x00, 0x00, 0x00, 0x00, 0x00, 0x00, 0x00, 0x00, 0x00, 0x00,
  0x01, 0x00, 0x00, 0x00, 0x32, 0xec, 0x10, 0x3c, 0x18, 0x00, 0x00, 0x00,
  0x73, 0x65, 0x71, 0x75, 0x65, 0x6e, 0x74, 0x69, 0x61, 0x6c, 0x2f, 0x79,
  0x5f, 0x70, 0x72, 0x65, 0x64, 0x2f, 0x4d, 0x61, 0x74, 0x4d, 0x75, 0x6c,
  0x00, 0x00, 0x00, 0x00, 0x02, 0x00, 0x00, 0x00, 0x02, 0x00, 0x00, 0x00,
  0x40, 0x03, 0x00, 0x00, 0xea, 0xfe, 0xff, 0xff, 0x00, 0x00, 0x00, 0x01,
  0x14, 0x00, 0x00, 0x00, 0x34, 0x00, 0x00, 0x00, 0x04, 0x00, 0x00, 0x00,
  0x00, 0x00, 0x00, 0x02, 0x58, 0x00, 0x00, 0x00, 0xd4, 0xfe, 0xff, 0xff,
  0x08, 0x00, 0x00, 0x00, 0x14, 0x00, 0x00, 0x00, 0x01, 0x00, 0x00, 0x00,
  0x00, 0x00, 0x00, 0x00, 0x00, 0x00, 0x00, 0x00, 0x00, 0x00, 0x00, 0x00,
  0x01, 0x00, 0x00, 0x00, 0x8a, 0x92, 0x13, 0x39, 0x28, 0x00, 0x00, 0x00,
  0x73, 0x65, 0x71, 0x75, 0x65, 0x6e, 0x74, 0x69, 0x61, 0x6c, 0x2f, 0x79,
  0x5f, 0x70, 0x72, 0x65, 0x64, 0x2f, 0x42, 0x69, 0x61, 0x73, 0x41, 0x64,
  0x64, 0x2f, 0x52, 0x65, 0x61, 0x64, 0x56, 0x61, 0x72, 0x69, 0x61, 0x62,
  0x6c, 0x65, 0x4f, 0x70, 0x00, 0x00, 0x00, 0x00, 0x01, 0x00, 0x00, 0x00,
  0x02, 0x00, 0x00, 0x00, 0x62, 0xff, 0xff, 0xff, 0x00, 0x00, 0x00, 0x01,
  0x14, 0x00, 0x00, 0x00, 0x14, 0x00, 0x00, 0x00, 0x03, 0x00, 0x00, 0x00,
  0x00, 0x00, 0x00, 0x02, 0x28, 0x00, 0x00, 0x00, 0xb8, 0xff, 0xff, 0xff,
  0x18, 0x00, 0x00, 0x00, 0x73, 0x65, 0x71, 0x75, 0x65, 0x6e, 0x74, 0x69,
  0x61, 0x6c, 0x2f, 0x66, 0x6c, 0x61, 0x74, 0x74, 0x65, 0x6e, 0x2f, 0x43,
  0x6f, 0x6e, 0x73, 0x74, 0x00, 0x00, 0x00, 0x00, 0x01, 0x00, 0x00, 0x00,
  0x02, 0x00, 0x00, 0x00, 0xaa, 0xff, 0xff, 0xff, 0x00, 0x00, 0x00, 0x01,
  0x18, 0x00, 0x00, 0x00, 0x18, 0x00, 0x00, 0x00, 0x02, 0x00, 0x00, 0x00,
  0x00, 0x00, 0x00, 0x02, 0x34, 0x00, 0x00, 0x00, 0x04, 0x00, 0x04, 0x00,
  0x04, 0x00, 0x00, 0x00, 0x20, 0x00, 0x00, 0x00, 0x73, 0x65, 0x71, 0x75,
  0x65, 0x6e, 0x74, 0x69, 0x61, 0x6c, 0x2f, 0x72, 0x65, 0x73, 0x68, 0x61,
  0x70, 0x65, 0x2f, 0x52, 0x65, 0x73, 0x68, 0x61, 0x70, 0x65, 0x2f, 0x73,
  0x68, 0x61, 0x70, 0x65, 0x00, 0x00, 0x00, 0x00, 0x01, 0x00, 0x00, 0x00,
  0x04, 0x00, 0x00, 0x00, 0x00, 0x00, 0x16, 0x00, 0x1c, 0x00, 0x18, 0x00,
  0x17, 0x00, 0x10, 0x00, 0x0c, 0x00, 0x08, 0x00, 0x00, 0x00, 0x00, 0x00,
  0x00, 0x00, 0x07, 0x00, 0x16, 0x00, 0x00, 0x00, 0x00, 0x00, 0x00, 0x01,
  0x20, 0x00, 0x00, 0x00, 0x3c, 0x00, 0x00, 0x00, 0x01, 0x00, 0x00, 0x00,
  0x00, 0x00, 0x00, 0x09, 0x48, 0x00, 0x00, 0x00, 0x0c, 0x00, 0x0c, 0x00,
  0x00, 0x00, 0x00, 0x00, 0x08, 0x00, 0x04, 0x00, 0x0c, 0x00, 0x00, 0x00,
  0x08, 0x00, 0x00, 0x00, 0x10, 0x00, 0x00, 0x00, 0x01, 0x00, 0x00, 0x00,
  0xfb, 0xff, 0xff, 0xff, 0xff, 0xff, 0xff, 0xff, 0x01, 0x00, 0x00, 0x00,
  0x44, 0x62, 0x28, 0x3d, 0x13, 0x00, 0x00, 0x00, 0x73, 0x65, 0x72, 0x76,
  0x69, 0x6e, 0x67, 0x5f, 0x64, 0x65, 0x66, 0x61, 0x75, 0x6c, 0x74, 0x5f,
  0x78, 0x3a, 0x30, 0x00, 0x02, 0x00, 0x00, 0x00, 0x01, 0x00, 0x00, 0x00,
  0x8a, 0x02, 0x00, 0x00, 0x05, 0x00, 0x00, 0x00, 0x6c, 0x00, 0x00, 0x00,
  0x4c, 0x00, 0x00, 0x00, 0x2c, 0x00, 0x00, 0x00, 0x18, 0x00, 0x00, 0x00,
  0x04, 0x00, 0x00, 0x00, 0xd0, 0xff, 0xff, 0xff, 0x19, 0x00, 0x00, 0x00,
  0x02, 0x00, 0x00, 0x00, 0x00, 0x00, 0x00, 0x19, 0xe0, 0xff, 0xff, 0xff,
  0x09, 0x00, 0x00, 0x00, 0x04, 0x00, 0x00, 0x00, 0x00, 0x00, 0x00, 0x09,
  0xf0, 0xff, 0xff, 0xff, 0x11, 0x00, 0x00, 0x00, 0x02, 0x00, 0x00, 0x00,
  0x00, 0x00, 0x00, 0x11, 0x0c, 0x00, 0x10, 0x00, 0x0f, 0x00, 0x00, 0x00,
  0x08, 0x00, 0x04, 0x00, 0x0c, 0x00, 0x00, 0x00, 0x03, 0x00, 0x00, 0x00,
  0x03, 0x00, 0x00, 0x00, 0x00, 0x00, 0x00, 0x03, 0x0c, 0x00, 0x0c, 0x00,
  0x0b, 0x00, 0x00, 0x00, 0x00, 0x00, 0x04, 0x00, 0x0c, 0x00, 0x00, 0x00,
  0x16, 0x00, 0x00, 0x00, 0x00, 0x00, 0x00, 0x16
};
unsigned int tflite_learn_333519_3_len = 7040;
#endif // _EI_CLASSIFIER_TFLITE_LEARN_333519_3_H_
